-- begin_signature
-- biases_rom
-- end_signature
WIDTH=32;
DEPTH=26;

ADDRESS_RADIX=UNS;
DATA_RADIX=BIN;

CONTENT BEGIN
	25 :	00000000000000000000000001100010;
	24 :	00000000000000000000000000011011;
	23 :	11111111111111111111111101101111;
	22 :	00000000000000000000000101011110;
	21 :	11111111111111111111111101100010;
	20 :	11111111111111111111111111110011;
	19 :	00000000000000000000000100010001;
	18 :	11111111111111111111111101101111;
	17 :	00000000000000000000000001101010;
	16 :	00000000000000000000000010100011;
	15 :	00000000000000000000000000010001;
	14 :	11111111111111111111111111001111;
	13 :	11111111111111111111111111011010;
	12 :	00000000000000000000000000011010;
	11 :	11111111111111111111111111101011;
	10 :	11111111111111111111111111100000;
	9 :	11111111111111111111111111101100;
	8 :	00000000000000000000000000011100;
	7 :	11111111111111111111111111101100;
	6 :	11111111111111111111111111101101;
	5 :	00000000000000000000000000110111;
	4 :	00000000000000000000000000000000;
	3 :	11111111111111111111111111110000;
	2 :	00000000000000000000000000010111;
	1 :	00000000000000000000000000000001;
	0 :	11111111111111111111111111011010;
END;
